<?xml version="1.0"?>
<opencv_storage>
<cascade>
  <stageType>BOOST</stageType>
  <featureType>LBP</featureType>
  <height>18</height>
  <width>36</width>
  <stageParams>
    <boostType>GAB</boostType>
    <minHitRate>9.9900001287460327e-01</minHitRate>
    <maxFalseAlarm>4.4999998807907104e-01</maxFalseAlarm>
    <weightTrimRate>9.4999999999999996e-01</weightTrimRate>
    <maxDepth>1</maxDepth>
    <maxWeakCount>100</maxWeakCount></stageParams>
  <featureParams>
    <maxCatCount>256</maxCatCount>
    <featSize>1</featSize></featureParams>
  <stageNum>13</stageNum>
  <stages>
    <!-- stage 0 -->
    <_>
      <maxWeakCount>4</maxWeakCount>
      <stageThreshold>-2.0342450141906738e+00</stageThreshold>
      <weakClassifiers>
        <_>
          <internalNodes>
            0 -1 24 -1 -131073 -1 -655363 -1 -131587 -1 -467459</internalNodes>
          <leafValues>
            -9.2590254545211792e-01 7.8911566734313965e-01</leafValues></_>
        <_>
          <internalNodes>
            0 -1 61 -2 -1 -2311172 -1 -2 -1 -2 -1</internalNodes>
          <leafValues>
            -8.7087500095367432e-01 6.1714726686477661e-01</leafValues></_>
        <_>
          <internalNodes>
            0 -1 26 1343288831 1978711541 288423935 2113002965 -40845825
            -918529 2021195775 -6750723</internalNodes>
          <leafValues>
            -7.9864817857742310e-01 6.0106444358825684e-01</leafValues></_>
        <_>
          <internalNodes>
            0 -1 38 -1618453288 -541835804 -16843267 -776 -1372917798
            -1835300 -1079329298 -1146319732</internalNodes>
          <leafValues>
            -7.9658252000808716e-01 5.6118059158325195e-01</leafValues></_></weakClassifiers></_>
    <!-- stage 1 -->
    <_>
      <maxWeakCount>4</maxWeakCount>
      <stageThreshold>-1.9798495769500732e+00</stageThreshold>
      <weakClassifiers>
        <_>
          <internalNodes>
            0 -1 20 -393217 -917507 -131073 -655875 -196609 -131073
            -196609 -131587</internalNodes>
          <leafValues>
            -9.0280282497406006e-01 5.8023124933242798e-01</leafValues></_>
        <_>
          <internalNodes>
            0 -1 74 -1 -1 -32769 -1 1372934399 301273557 1476361215
            2147442687</internalNodes>
          <leafValues>
            -8.7165600061416626e-01 4.7467294335365295e-01</leafValues></_>
        <_>
          <internalNodes>
            0 -1 46 278926589 -33726979 -131073 -33283 -1145389057
            -131073 -1078985729 -1073799681</internalNodes>
          <leafValues>
            -7.2595536708831787e-01 5.7873344421386719e-01</leafValues></_>
        <_>
          <internalNodes>
            0 -1 33 -131073 -524289 -539099137 -9084963 -132097
            -1648591361 -1073741825 532176284</internalNodes>
          <leafValues>
            -7.7763170003890991e-01 5.2056461572647095e-01</leafValues></_></weakClassifiers></_>
    <!-- stage 2 -->
    <_>
      <maxWeakCount>6</maxWeakCount>
      <stageThreshold>-1.8634091615676880e+00</stageThreshold>
      <weakClassifiers>
        <_>
          <internalNodes>
            0 -1 15 -65537 -65537 -268500993 -65537 -65537 -1 -1 -1</internalNodes>
          <leafValues>
            -8.7645614147186279e-01 5.4339873790740967e-01</leafValues></_>
        <_>
          <internalNodes>
            0 -1 65 -1 -1 919042 -812658938 -1 -1 -279983345 -268435473</internalNodes>
          <leafValues>
            -7.7158933877944946e-01 6.1553484201431274e-01</leafValues></_>
        <_>
          <internalNodes>
            0 -1 93 -3 2147352573 -3 -1 -1027 -3 -303620 -8707</internalNodes>
          <leafValues>
            -6.8344050645828247e-01 6.5577822923660278e-01</leafValues></_>
        <_>
          <internalNodes>
            0 -1 49 -1069170 -262241 -268435457 -17 -1 -1 -16401
            -1071222</internalNodes>
          <leafValues>
            -7.2066408395767212e-01 5.3805029392242432e-01</leafValues></_>
        <_>
          <internalNodes>
            0 -1 13 -134221841 -385880081 -285217138 -452985105
            -134250665 2004311927 -142606523 -184549377</internalNodes>
          <leafValues>
            -6.2946200370788574e-01 6.0200679302215576e-01</leafValues></_>
        <_>
          <internalNodes>
            0 -1 45 1060650997 -49155 -1082130433 -4358145 -1078001667
            -65537 -1073807361 -1073998596</internalNodes>
          <leafValues>
            -6.7198020219802856e-01 5.8705782890319824e-01</leafValues></_></weakClassifiers></_>
    <!-- stage 3 -->
    <_>
      <maxWeakCount>6</maxWeakCount>
      <stageThreshold>-2.8785030841827393e+00</stageThreshold>
      <weakClassifiers>
        <_>
          <internalNodes>
            0 -1 22 -235798529 -917515 -917505 -655371 -67436545 -1
            -131073 -1</internalNodes>
          <leafValues>
            -8.5266751050949097e-01 5.7509160041809082e-01</leafValues></_>
        <_>
          <internalNodes>
            0 -1 73 -1 -1 -67241025 -1 -131075 -131075 -131073 -33685505</internalNodes>
          <leafValues>
            -7.3346221446990967e-01 6.3821834325790405e-01</leafValues></_>
        <_>
          <internalNodes>
            0 -1 101 -1 -490733569 -536871134 -89456641 1735884563
            99090231 -524509 -201851017</internalNodes>
          <leafValues>
            -5.9528410434722900e-01 6.5860098600387573e-01</leafValues></_>
        <_>
          <internalNodes>
            0 -1 21 -1331654415 -105795079 -1322241551 -1078873611
            -1313817925 -72105985 -1129268485 -263169</internalNodes>
          <leafValues>
            -6.3404846191406250e-01 5.8066964149475098e-01</leafValues></_>
        <_>
          <internalNodes>
            0 -1 50 464068061 -700939 -1073750017 -1073787459
            -1078280449 -16899 1065062143 1069029884</internalNodes>
          <leafValues>
            -7.2084456682205200e-01 4.8525854945182800e-01</leafValues></_>
        <_>
          <internalNodes>
            0 -1 12 -285216786 -2064732177 -17832278 -890831634
            -134222571 358577967 -402655674 -185598481</internalNodes>
          <leafValues>
            -7.1387666463851929e-01 4.9691921472549438e-01</leafValues></_></weakClassifiers></_>
    <!-- stage 4 -->
    <_>
      <maxWeakCount>8</maxWeakCount>
      <stageThreshold>-2.0361747741699219e+00</stageThreshold>
      <weakClassifiers>
        <_>
          <internalNodes>
            0 -1 7 -1 -1 -2097153 -65538 -1 -1 -1 -1</internalNodes>
          <leafValues>
            -8.2377123832702637e-01 6.3003587722778320e-01</leafValues></_>
        <_>
          <internalNodes>
            0 -1 55 -1 1064370173 -458753 -1073938433 -1 -1083113475 -1
            -1</internalNodes>
          <leafValues>
            -6.7633801698684692e-01 6.2972462177276611e-01</leafValues></_>
        <_>
          <internalNodes>
            0 -1 31 -3014657 -917507 2144468991 2146786813 -33751041
            -131585 -33751041 2142821885</internalNodes>
          <leafValues>
            -7.5081598758697510e-01 4.7273784875869751e-01</leafValues></_>
        <_>
          <internalNodes>
            0 -1 82 -137892664 -50 -1 -4145 -49 -1048577 -1048881
            -3153398</internalNodes>
          <leafValues>
            -6.1450618505477905e-01 5.7562756538391113e-01</leafValues></_>
        <_>
          <internalNodes>
            0 -1 99 -264425 -201326793 -8388847 -9 -1074268299
            1207435255 -303244 -134742025</internalNodes>
          <leafValues>
            -5.6458240747451782e-01 6.0910862684249878e-01</leafValues></_>
        <_>
          <internalNodes>
            0 -1 25 -1398744836 -67305740 2122121215 -197124 -1213530370
            -259 -1903362049 -1729574692</internalNodes>
          <leafValues>
            -6.8992388248443604e-01 4.9391469359397888e-01</leafValues></_>
        <_>
          <internalNodes>
            0 -1 70 -4936 -12292 2147372164 -513 1568494996 1609440761
            1576883660 -268435457</internalNodes>
          <leafValues>
            -7.8781646490097046e-01 3.7629041075706482e-01</leafValues></_>
        <_>
          <internalNodes>
            0 -1 3 -4245 1760421503 -436470609 -318771473 2146920277
            1146582871 -33569419 -529008795</internalNodes>
          <leafValues>
            -5.9815102815628052e-01 5.2363389730453491e-01</leafValues></_></weakClassifiers></_>
    <!-- stage 5 -->
    <_>
      <maxWeakCount>9</maxWeakCount>
      <stageThreshold>-2.6401433944702148e+00</stageThreshold>
      <weakClassifiers>
        <_>
          <internalNodes>
            0 -1 23 -235798529 -202244101 -1 -143392777 -2561 -1
            -536870913 -1</internalNodes>
          <leafValues>
            -8.1947523355484009e-01 5.0411278009414673e-01</leafValues></_>
        <_>
          <internalNodes>
            0 -1 29 -655873 -655875 -131075 -131075 -1075970049 -1 -1
            -4661763</internalNodes>
          <leafValues>
            -7.6144993305206299e-01 4.3891867995262146e-01</leafValues></_>
        <_>
          <internalNodes>
            0 -1 88 -8519681 1601509375 223678463 2104982527 1467223999
            220203261 1610423807 2147483647</internalNodes>
          <leafValues>
            -6.3413554430007935e-01 5.3781616687774658e-01</leafValues></_>
        <_>
          <internalNodes>
            0 -1 81 1001405949 -4358147 -268435457 -1073775107
            -1077952513 -1 -1073823745 -1078059523</internalNodes>
          <leafValues>
            -6.2833881378173828e-01 5.0030142068862915e-01</leafValues></_>
        <_>
          <internalNodes>
            0 -1 60 -17 -33 -955316728 -5275697 2139090687 -67617
            -817377522 -33</internalNodes>
          <leafValues>
            -5.8740234375000000e-01 5.7316154241561890e-01</leafValues></_>
        <_>
          <internalNodes>
            0 -1 103 -65 -486604801 -1207961805 -487391241 1198874421
            100007927 -32991 -134774921</internalNodes>
          <leafValues>
            -5.4412049055099487e-01 5.6242501735687256e-01</leafValues></_>
        <_>
          <internalNodes>
            0 -1 48 1068506621 -254467 1073725439 -50691 -1078657031
            -557057 -1086930947 515509357</internalNodes>
          <leafValues>
            -6.6691058874130249e-01 4.3244293332099915e-01</leafValues></_>
        <_>
          <internalNodes>
            0 -1 14 -285282561 1828384767 -385947906 -390435074
            1744815871 1559748479 -186653507 -452984837</internalNodes>
          <leafValues>
            -5.6161415576934814e-01 5.1785010099411011e-01</leafValues></_>
        <_>
          <internalNodes>
            0 -1 89 1056903676 1073524728 -1074013699 -4194307 -99331
            -67243073 -1342276360 -537962019</internalNodes>
          <leafValues>
            -7.7258890867233276e-01 3.3530992269515991e-01</leafValues></_></weakClassifiers></_>
    <!-- stage 6 -->
    <_>
      <maxWeakCount>8</maxWeakCount>
      <stageThreshold>-2.8518867492675781e+00</stageThreshold>
      <weakClassifiers>
        <_>
          <internalNodes>
            0 -1 56 -1 -163843 -67108865 -131075 -1 -131075 -1 -1</internalNodes>
          <leafValues>
            -8.0108910799026489e-01 4.8502495884895325e-01</leafValues></_>
        <_>
          <internalNodes>
            0 -1 6 -285212673 -65537 -4456449 -16851458 -1025 -1 -1 -1</internalNodes>
          <leafValues>
            -6.1946111917495728e-01 5.3809785842895508e-01</leafValues></_>
        <_>
          <internalNodes>
            0 -1 59 -134217758 -2 -33554433 -524290 -2 -4609 -5
            -67108894</internalNodes>
          <leafValues>
            -7.1282112598419189e-01 4.0757191181182861e-01</leafValues></_>
        <_>
          <internalNodes>
            0 -1 41 1006638589 -165891 -1073872897 -57859 -1077936129
            -131073 -1077952513 -1073799683</internalNodes>
          <leafValues>
            -6.0124278068542480e-01 4.7735413908958435e-01</leafValues></_>
        <_>
          <internalNodes>
            0 -1 97 -213 -365953105 -402655488 46596003 -269484777
            389545975 -134217984 -671612937</internalNodes>
          <leafValues>
            -6.2006080150604248e-01 4.5154798030853271e-01</leafValues></_>
        <_>
          <internalNodes>
            0 -1 17 -1415577413 -1074066949 721420539 -1682890511
            -71595525 -1612772357 -1346387969 -19969</internalNodes>
          <leafValues>
            -5.9748512506484985e-01 4.9444705247879028e-01</leafValues></_>
        <_>
          <internalNodes>
            0 -1 40 -1145283075 -41477 -557057 -297731 -1148174339
            -123948 -1084309507 -1623566851</internalNodes>
          <leafValues>
            -5.4025226831436157e-01 5.0583851337432861e-01</leafValues></_>
        <_>
          <internalNodes>
            0 -1 47 -268964090 -269484125 -352395262 -222302354
            2004872709 1145927519 -419433472 -134219777</internalNodes>
          <leafValues>
            -5.5846428871154785e-01 4.9609291553497314e-01</leafValues></_></weakClassifiers></_>
    <!-- stage 7 -->
    <_>
      <maxWeakCount>9</maxWeakCount>
      <stageThreshold>-2.6192014217376709e+00</stageThreshold>
      <weakClassifiers>
        <_>
          <internalNodes>
            0 -1 57 -262157 -13566095 -1 -655501 -1 -524297 -1 -137</internalNodes>
          <leafValues>
            -8.2515615224838257e-01 3.0795621871948242e-01</leafValues></_>
        <_>
          <internalNodes>
            0 -1 92 -3 2147352573 -3 -1 -259 1006501885 -35 -1</internalNodes>
          <leafValues>
            -6.9734054803848267e-01 3.9447233080863953e-01</leafValues></_>
        <_>
          <internalNodes>
            0 -1 51 -162017789 -142611089 -129 -134742177 -474224689
            -262273 -528433 1615323651</internalNodes>
          <leafValues>
            -5.9710878133773804e-01 4.8062783479690552e-01</leafValues></_>
        <_>
          <internalNodes>
            0 -1 32 -1594822405 -202118149 -1514279425 -179175437
            -520105745 -262157 -2131768065 -80216077</internalNodes>
          <leafValues>
            -5.0088214874267578e-01 5.2270323038101196e-01</leafValues></_>
        <_>
          <internalNodes>
            0 -1 10 -4369 -454164561 -159430110 -520166162 -42515131
            1147633479 -186661691 -184549393</internalNodes>
          <leafValues>
            -5.5069172382354736e-01 4.8653903603553772e-01</leafValues></_>
        <_>
          <internalNodes>
            0 -1 71 1035091453 -1073799683 -1 2147303417 -1078214657
            -1073742337 -1073758273 1069026557</internalNodes>
          <leafValues>
            -7.2854304313659668e-01 3.9733976125717163e-01</leafValues></_>
        <_>
          <internalNodes>
            0 -1 79 -721946625 -138946706 -2098177 1910504823 -672155681
            -34609589 -536870929 1079473735</internalNodes>
          <leafValues>
            -5.9950941801071167e-01 4.0947523713111877e-01</leafValues></_>
        <_>
          <internalNodes>
            0 -1 64 -1212653601 -35097352 -65537 498867420 -1080366913
            -1074004228 -1893077025 253234429</internalNodes>
          <leafValues>
            -6.6400259733200073e-01 3.4215408563613892e-01</leafValues></_>
        <_>
          <internalNodes>
            0 -1 98 -1107296509 -470093833 -10496 -134807561 -525003
            -2014248965 -167772383 -219676809</internalNodes>
          <leafValues>
            -5.8302152156829834e-01 4.1199365258216858e-01</leafValues></_></weakClassifiers></_>
    <!-- stage 8 -->
    <_>
      <maxWeakCount>10</maxWeakCount>
      <stageThreshold>-2.6118459701538086e+00</stageThreshold>
      <weakClassifiers>
        <_>
          <internalNodes>
            0 -1 63 -1 -1 -720897 -131073 -1 -4215873 -131073 -1</internalNodes>
          <leafValues>
            -7.7082878351211548e-01 5.6879794597625732e-01</leafValues></_>
        <_>
          <internalNodes>
            0 -1 11 -6401 -453513473 -419519249 -520100625 1610565111
            2113232885 -117455635 -184549633</internalNodes>
          <leafValues>
            -6.3810354471206665e-01 4.6495816111564636e-01</leafValues></_>
        <_>
          <internalNodes>
            0 -1 84 -258 -134217985 81529084 -9 -139266 -574693379
            -135681 -1</internalNodes>
          <leafValues>
            -5.2163022756576538e-01 5.3816276788711548e-01</leafValues></_>
        <_>
          <internalNodes>
            0 -1 75 -32769 -1185 -200708 -6145 -33800708 -251400
            2147229436 -1</internalNodes>
          <leafValues>
            -5.0625187158584595e-01 4.9829903244972229e-01</leafValues></_>
        <_>
          <internalNodes>
            0 -1 43 -539164931 -2180 -67129347 -4224884 -269553921
            -131097 -1901410162 -269842296</internalNodes>
          <leafValues>
            -5.0016772747039795e-01 5.0962829589843750e-01</leafValues></_>
        <_>
          <internalNodes>
            0 -1 8 -303617 -106497 -4360193 -15855686 -4556834 -129
            2139815935 -365954</internalNodes>
          <leafValues>
            -4.4410195946693420e-01 5.5513292551040649e-01</leafValues></_>
        <_>
          <internalNodes>
            0 -1 100 -285737025 1157298175 -134940360 -286097546
            -134914297 74776511 -134218494 -672727177</internalNodes>
          <leafValues>
            -5.4550522565841675e-01 4.4971314072608948e-01</leafValues></_>
        <_>
          <internalNodes>
            0 -1 36 271585531 -1678661473 833624319 -1208910337
            -1157891841 -1075103041 -1143223809 -4211713</internalNodes>
          <leafValues>
            -5.0254040956497192e-01 4.8145627975463867e-01</leafValues></_>
        <_>
          <internalNodes>
            0 -1 44 -1073274878 -33554517 -2049 -73 -1385168977 -5
            -1052689 -1016617470</internalNodes>
          <leafValues>
            -5.7630765438079834e-01 4.1705569624900818e-01</leafValues></_>
        <_>
          <internalNodes>
            0 -1 34 657481213 -1073746435 -32769 -545423364 -1074200577
            -33817089 -1073872897 -1346892420</internalNodes>
          <leafValues>
            -5.7805365324020386e-01 3.9913821220397949e-01</leafValues></_></weakClassifiers></_>
    <!-- stage 9 -->
    <_>
      <maxWeakCount>10</maxWeakCount>
      <stageThreshold>-2.4643886089324951e+00</stageThreshold>
      <weakClassifiers>
        <_>
          <internalNodes>
            0 -1 39 -13369549 -5112015 -1 -2057 -1 -1073741825 -1 -33</internalNodes>
          <leafValues>
            -8.1487262248992920e-01 2.4292339384555817e-01</leafValues></_>
        <_>
          <internalNodes>
            0 -1 66 -33 -1052817 -821047537 -821047793 -2097205
            -539230369 -547369137 -538968097</internalNodes>
          <leafValues>
            -5.9491676092147827e-01 5.3505510091781616e-01</leafValues></_>
        <_>
          <internalNodes>
            0 -1 77 -1 -8388609 -65537 -753668 -704776194 -1 -251875650
            -720900</internalNodes>
          <leafValues>
            -7.2805595397949219e-01 3.6256539821624756e-01</leafValues></_>
        <_>
          <internalNodes>
            0 -1 4 -6529 -320477209 -16849154 -385945873 -167815867
            1165350133 -402655755 -453640195</internalNodes>
          <leafValues>
            -5.9773188829421997e-01 4.0015169978141785e-01</leafValues></_>
        <_>
          <internalNodes>
            0 -1 85 237129500 -8424452 1073684349 -57604 -268501249
            -1027 -1073743105 -62979</internalNodes>
          <leafValues>
            -6.8494206666946411e-01 4.0243232250213623e-01</leafValues></_>
        <_>
          <internalNodes>
            0 -1 52 -268703193 -156307537 -419500544 -220024833
            1734813444 1467121503 1671927744 -134217761</internalNodes>
          <leafValues>
            -5.5083817243576050e-01 4.3721544742584229e-01</leafValues></_>
        <_>
          <internalNodes>
            0 -1 19 -1901527298 -196868 -14876673 -33768068 -1414857030
            -272642 772472811 -1998005061</internalNodes>
          <leafValues>
            -6.2804728746414185e-01 3.8557624816894531e-01</leafValues></_>
        <_>
          <internalNodes>
            0 -1 86 -334771198 -353472698 -822120960 -1025249304
            -277887473 7751647 -218111808 -201326661</internalNodes>
          <leafValues>
            -6.0905671119689941e-01 3.7866249680519104e-01</leafValues></_>
        <_>
          <internalNodes>
            0 -1 9 1060658677 -539075074 -1634058241 -1209136936
            -67469956 -295425 515406847 800720952</internalNodes>
          <leafValues>
            -6.6529649496078491e-01 3.1700772047042847e-01</leafValues></_>
        <_>
          <internalNodes>
            0 -1 96 -69206778 -593756161 -337641554 -1332674646
            -340271360 1241840542 -269522174 -1028391065</internalNodes>
          <leafValues>
            -5.7249569892883301e-01 3.7657254934310913e-01</leafValues></_></weakClassifiers></_>
    <!-- stage 10 -->
    <_>
      <maxWeakCount>10</maxWeakCount>
      <stageThreshold>-2.1045045852661133e+00</stageThreshold>
      <weakClassifiers>
        <_>
          <internalNodes>
            0 -1 78 -587202561 -33554561 -1 -1 -855834625 -318963714 -1
            -286326801</internalNodes>
          <leafValues>
            -8.1911849975585938e-01 1.7397703230381012e-01</leafValues></_>
        <_>
          <internalNodes>
            0 -1 5 -269553665 -269488129 804253695 -268701953 1341050879
            -805343745 1342172671 -805306369</internalNodes>
          <leafValues>
            -6.5629780292510986e-01 4.0179169178009033e-01</leafValues></_>
        <_>
          <internalNodes>
            0 -1 53 -520102657 -513 -1 -33562625 -16778245 -1 -16777217
            -117451521</internalNodes>
          <leafValues>
            -4.4822385907173157e-01 6.2241542339324951e-01</leafValues></_>
        <_>
          <internalNodes>
            0 -1 90 -5328984 1072639151 1009396392 1068445343
            -1347703109 1056902831 1061142527 -1</internalNodes>
          <leafValues>
            -6.2283945083618164e-01 3.9643344283103943e-01</leafValues></_>
        <_>
          <internalNodes>
            0 -1 68 -1 2104524796 2147483643 -1615135620 -1077936133
            -4456449 1060896767 -1615864323</internalNodes>
          <leafValues>
            -4.7250941395759583e-01 4.9137505888938904e-01</leafValues></_>
        <_>
          <internalNodes>
            0 -1 102 -268435525 -323551297 -67805 -488570958 -559337
            15785815 -524510 -738788091</internalNodes>
          <leafValues>
            -5.5606728792190552e-01 4.1283124685287476e-01</leafValues></_>
        <_>
          <internalNodes>
            0 -1 87 1066933757 -8790147 -2097729 -57347 -1141178369
            -262145 -1078198337 1069288732</internalNodes>
          <leafValues>
            -6.2374645471572876e-01 3.9036488533020020e-01</leafValues></_>
        <_>
          <internalNodes>
            0 -1 83 -544477046 -11544594 -71565313 -1065074 -278
            -67125265 -167776278 -205012342</internalNodes>
          <leafValues>
            -5.3986650705337524e-01 3.9920285344123840e-01</leafValues></_>
        <_>
          <internalNodes>
            0 -1 67 -78648756 -1371476210 -278213107 -873762993
            -307303986 -1924214836 1328270675 -537923585</internalNodes>
          <leafValues>
            -5.6536871194839478e-01 3.5885116457939148e-01</leafValues></_>
        <_>
          <internalNodes>
            0 -1 69 1068654557 -1612898819 -1 -57859 -1078806050 -9219
            800763771 1067980285</internalNodes>
          <leafValues>
            -5.9921675920486450e-01 3.4253051877021790e-01</leafValues></_></weakClassifiers></_>
    <!-- stage 11 -->
    <_>
      <maxWeakCount>10</maxWeakCount>
      <stageThreshold>-2.0687673091888428e+00</stageThreshold>
      <weakClassifiers>
        <_>
          <internalNodes>
            0 -1 28 -202244097 -202113025 -134348801 -143392777 -1
            -67108865 -838860801 -8388609</internalNodes>
          <leafValues>
            -8.0870395898818970e-01 2.3376622796058655e-01</leafValues></_>
        <_>
          <internalNodes>
            0 -1 72 -81529005 -4194305 -1 -2057 -5505025 -8193 -6557701
            -6031581</internalNodes>
          <leafValues>
            -6.0149168968200684e-01 4.0853938460350037e-01</leafValues></_>
        <_>
          <internalNodes>
            0 -1 95 -239 -1846149163 -239 -202113033 -787788 -65793
            -289415788 -513</internalNodes>
          <leafValues>
            -5.7564008235931396e-01 4.3317008018493652e-01</leafValues></_>
        <_>
          <internalNodes>
            0 -1 76 -74276 -2294284 -2211 -5376065 -67176481 -65671
            -67174433 -1048577</internalNodes>
          <leafValues>
            -5.4501456022262573e-01 4.3129876255989075e-01</leafValues></_>
        <_>
          <internalNodes>
            0 -1 37 -4595713 -40963 -513 1602224127 -1078329669
            -1087089423 -1992359937 -1621436163</internalNodes>
          <leafValues>
            -4.6254310011863708e-01 4.7733214497566223e-01</leafValues></_>
        <_>
          <internalNodes>
            0 -1 30 -285217020 -420544657 -17404382 -219152401 -33571067
            84113215 -142625536 -251658241</internalNodes>
          <leafValues>
            -5.4295665025711060e-01 4.2410808801651001e-01</leafValues></_>
        <_>
          <internalNodes>
            0 -1 2 -1430061057 -2687499 -68223489 -6890507 -345571330
            -1025 -1342251011 -1387987147</internalNodes>
          <leafValues>
            -5.1630592346191406e-01 4.0957838296890259e-01</leafValues></_>
        <_>
          <internalNodes>
            0 -1 80 -538970633 2080336639 291191125 503312379 231223293
            500447380 1293243902 534732799</internalNodes>
          <leafValues>
            -5.9015130996704102e-01 3.4866726398468018e-01</leafValues></_>
        <_>
          <internalNodes>
            0 -1 16 -288362753 -319094785 -285217025 -323028294
            -671091337 -578848897 -167772427 -1526726665</internalNodes>
          <leafValues>
            -5.4009169340133667e-01 3.9305213093757629e-01</leafValues></_>
        <_>
          <internalNodes>
            0 -1 42 964709596 2113887476 -1073807361 2147421437
            -1146953800 -33793 1060814783 532356607</internalNodes>
          <leafValues>
            -6.2359029054641724e-01 3.1893584132194519e-01</leafValues></_></weakClassifiers></_>
    <!-- stage 12 -->
    <_>
      <maxWeakCount>11</maxWeakCount>
      <stageThreshold>-2.6598083972930908e+00</stageThreshold>
      <weakClassifiers>
        <_>
          <internalNodes>
            0 -1 58 -1 -788489 -1 -137 -3 -262153 -32907 -1073795225</internalNodes>
          <leafValues>
            -8.2363724708557129e-01 1.2568908929824829e-01</leafValues></_>
        <_>
          <internalNodes>
            0 -1 18 -297799937 2134855519 -16847105 -17060097 1602211327
            1610567679 -54571777 -33554433</internalNodes>
          <leafValues>
            -5.7906734943389893e-01 4.4197958707809448e-01</leafValues></_>
        <_>
          <internalNodes>
            0 -1 65 -2049 -1052673 917507 1196412418 -2053 -67109393
            1665888847 -2305</internalNodes>
          <leafValues>
            -5.1034271717071533e-01 4.4094023108482361e-01</leafValues></_>
        <_>
          <internalNodes>
            0 -1 1 -8210 -2228276 -1 2147343836 -8589314 -1668 -1114130
            -37684020</internalNodes>
          <leafValues>
            -6.1371928453445435e-01 3.6597016453742981e-01</leafValues></_>
        <_>
          <internalNodes>
            0 -1 54 -1998322540 -33686289 -4210689 -33702401 -1431388278
            -69 -1195982849 -1191215105</internalNodes>
          <leafValues>
            -5.7145738601684570e-01 3.7170705199241638e-01</leafValues></_>
        <_>
          <internalNodes>
            0 -1 94 -185075968 1912329533 -536871151 2139085821 -104
            -1094976577 -536879944 -524291</internalNodes>
          <leafValues>
            -5.6996440887451172e-01 3.6066383123397827e-01</leafValues></_>
        <_>
          <internalNodes>
            0 -1 27 -1214120015 -1145964655 -1921531939 -138971289
            -1233059845 -1447379267 278265820 477583227</internalNodes>
          <leafValues>
            -5.1563745737075806e-01 3.8777902722358704e-01</leafValues></_>
        <_>
          <internalNodes>
            0 -1 91 -1060387697 -67112961 -1 -67110933 -541065473
            -67112961 -92280065 -1068776305</internalNodes>
          <leafValues>
            -3.8341939449310303e-01 5.3206974267959595e-01</leafValues></_>
        <_>
          <internalNodes>
            0 -1 62 -67108897 -552585248 -1253523588 -1650147340
            -1049601 -72318979 -37953602 -197123</internalNodes>
          <leafValues>
            -6.4406567811965942e-01 3.3149129152297974e-01</leafValues></_>
        <_>
          <internalNodes>
            0 -1 0 -2136816032 -536920073 -1073741825 -35 -1342791697
            -257 -298844165 -1943863296</internalNodes>
          <leafValues>
            -6.1470299959182739e-01 2.9013192653656006e-01</leafValues></_>
        <_>
          <internalNodes>
            0 -1 35 -704729412 1071611773 -1359730646 858500078
            1596788289 1063204182 805244296 2147483647</internalNodes>
          <leafValues>
            -6.0525840520858765e-01 3.0612424015998840e-01</leafValues></_></weakClassifiers></_></stages>
  <features>
    <_>
      <rect>
        0 0 2 2</rect></_>
    <_>
      <rect>
        0 0 12 3</rect></_>
    <_>
      <rect>
        0 1 5 2</rect></_>
    <_>
      <rect>
        0 4 1 3</rect></_>
    <_>
      <rect>
        0 5 1 3</rect></_>
    <_>
      <rect>
        0 9 3 2</rect></_>
    <_>
      <rect>
        0 13 3 1</rect></_>
    <_>
      <rect>
        0 14 3 1</rect></_>
    <_>
      <rect>
        0 14 4 1</rect></_>
    <_>
      <rect>
        0 15 4 1</rect></_>
    <_>
      <rect>
        1 6 1 2</rect></_>
    <_>
      <rect>
        1 6 1 3</rect></_>
    <_>
      <rect>
        1 7 1 1</rect></_>
    <_>
      <rect>
        1 8 1 1</rect></_>
    <_>
      <rect>
        1 9 1 2</rect></_>
    <_>
      <rect>
        1 9 3 3</rect></_>
    <_>
      <rect>
        1 11 1 1</rect></_>
    <_>
      <rect>
        2 8 9 2</rect></_>
    <_>
      <rect>
        2 9 1 2</rect></_>
    <_>
      <rect>
        3 3 6 1</rect></_>
    <_>
      <rect>
        3 11 10 2</rect></_>
    <_>
      <rect>
        4 9 8 2</rect></_>
    <_>
      <rect>
        4 10 9 2</rect></_>
    <_>
      <rect>
        4 11 9 1</rect></_>
    <_>
      <rect>
        4 12 9 2</rect></_>
    <_>
      <rect>
        5 3 6 1</rect></_>
    <_>
      <rect>
        5 10 9 2</rect></_>
    <_>
      <rect>
        5 11 6 1</rect></_>
    <_>
      <rect>
        5 11 8 1</rect></_>
    <_>
      <rect>
        5 12 7 2</rect></_>
    <_>
      <rect>
        6 7 1 1</rect></_>
    <_>
      <rect>
        6 11 8 2</rect></_>
    <_>
      <rect>
        6 11 9 1</rect></_>
    <_>
      <rect>
        6 12 9 2</rect></_>
    <_>
      <rect>
        7 0 2 1</rect></_>
    <_>
      <rect>
        7 8 1 2</rect></_>
    <_>
      <rect>
        7 9 8 2</rect></_>
    <_>
      <rect>
        7 14 7 1</rect></_>
    <_>
      <rect>
        8 3 6 1</rect></_>
    <_>
      <rect>
        8 11 4 1</rect></_>
    <_>
      <rect>
        8 14 4 1</rect></_>
    <_>
      <rect>
        10 2 2 1</rect></_>
    <_>
      <rect>
        10 2 5 1</rect></_>
    <_>
      <rect>
        10 4 5 1</rect></_>
    <_>
      <rect>
        11 1 1 3</rect></_>
    <_>
      <rect>
        11 1 2 1</rect></_>
    <_>
      <rect>
        11 2 3 1</rect></_>
    <_>
      <rect>
        11 7 1 1</rect></_>
    <_>
      <rect>
        11 14 3 1</rect></_>
    <_>
      <rect>
        12 0 4 4</rect></_>
    <_>
      <rect>
        12 1 4 1</rect></_>
    <_>
      <rect>
        12 2 1 3</rect></_>
    <_>
      <rect>
        12 8 1 1</rect></_>
    <_>
      <rect>
        13 1 2 2</rect></_>
    <_>
      <rect>
        13 3 2 1</rect></_>
    <_>
      <rect>
        13 6 2 4</rect></_>
    <_>
      <rect>
        13 9 2 3</rect></_>
    <_>
      <rect>
        13 11 2 1</rect></_>
    <_>
      <rect>
        13 12 2 1</rect></_>
    <_>
      <rect>
        14 1 3 3</rect></_>
    <_>
      <rect>
        14 5 3 2</rect></_>
    <_>
      <rect>
        14 5 3 4</rect></_>
    <_>
      <rect>
        14 10 2 2</rect></_>
    <_>
      <rect>
        14 10 3 2</rect></_>
    <_>
      <rect>
        14 14 6 1</rect></_>
    <_>
      <rect>
        15 5 2 2</rect></_>
    <_>
      <rect>
        15 6 2 2</rect></_>
    <_>
      <rect>
        15 7 2 2</rect></_>
    <_>
      <rect>
        15 13 5 1</rect></_>
    <_>
      <rect>
        15 15 3 1</rect></_>
    <_>
      <rect>
        16 6 2 3</rect></_>
    <_>
      <rect>
        17 1 2 1</rect></_>
    <_>
      <rect>
        17 1 2 2</rect></_>
    <_>
      <rect>
        17 3 3 5</rect></_>
    <_>
      <rect>
        17 5 3 3</rect></_>
    <_>
      <rect>
        17 6 2 4</rect></_>
    <_>
      <rect>
        17 8 1 2</rect></_>
    <_>
      <rect>
        17 10 1 2</rect></_>
    <_>
      <rect>
        17 11 3 1</rect></_>
    <_>
      <rect>
        18 3 2 2</rect></_>
    <_>
      <rect>
        18 8 2 2</rect></_>
    <_>
      <rect>
        19 1 2 1</rect></_>
    <_>
      <rect>
        21 0 2 3</rect></_>
    <_>
      <rect>
        21 1 2 3</rect></_>
    <_>
      <rect>
        21 5 2 4</rect></_>
    <_>
      <rect>
        21 10 4 2</rect></_>
    <_>
      <rect>
        22 6 1 1</rect></_>
    <_>
      <rect>
        23 0 2 1</rect></_>
    <_>
      <rect>
        23 6 2 3</rect></_>
    <_>
      <rect>
        24 9 4 3</rect></_>
    <_>
      <rect>
        25 8 2 2</rect></_>
    <_>
      <rect>
        26 0 1 3</rect></_>
    <_>
      <rect>
        27 6 3 4</rect></_>
    <_>
      <rect>
        27 9 3 3</rect></_>
    <_>
      <rect>
        29 11 2 1</rect></_>
    <_>
      <rect>
        30 11 2 1</rect></_>
    <_>
      <rect>
        32 3 1 2</rect></_>
    <_>
      <rect>
        32 8 1 1</rect></_>
    <_>
      <rect>
        32 10 1 1</rect></_>
    <_>
      <rect>
        32 11 1 1</rect></_>
    <_>
      <rect>
        33 5 1 2</rect></_>
    <_>
      <rect>
        33 6 1 2</rect></_>
    <_>
      <rect>
        33 7 1 2</rect></_>
    <_>
      <rect>
        33 8 1 2</rect></_></features></cascade>
</opencv_storage>
